FANN_FLO_2.1
num_layers=3
learning_rate=0.500000
connection_rate=1.000000
network_type=0
learning_momentum=0.000000
training_algorithm=2
train_error_function=1
train_stop_function=0
cascade_output_change_fraction=0.010000
quickprop_decay=-0.000100
quickprop_mu=1.750000
rprop_increase_factor=1.200000
rprop_decrease_factor=0.500000
rprop_delta_min=0.000000
rprop_delta_max=50.000000
rprop_delta_zero=0.100000
cascade_output_stagnation_epochs=12
cascade_candidate_change_fraction=0.010000
cascade_candidate_stagnation_epochs=12
cascade_max_out_epochs=150
cascade_min_out_epochs=50
cascade_max_cand_epochs=150
cascade_min_cand_epochs=50
cascade_num_candidate_groups=2
bit_fail_limit=3.49999994039535522461e-01
cascade_candidate_limit=1.00000000000000000000e+03
cascade_weight_multiplier=4.00000005960464477539e-01
cascade_activation_functions_count=10
cascade_activation_functions=3 5 7 8 10 11 14 15 16 17 
cascade_activation_steepnesses_count=4
cascade_activation_steepnesses=2.50000000000000000000e-01 5.00000000000000000000e-01 7.50000000000000000000e-01 1.00000000000000000000e+00 
layer_sizes=6 5 2 
scale_included=0
neurons (num_inputs, activation_function, activation_steepness)=(0, 0, 0.00000000000000000000e+00) (0, 0, 0.00000000000000000000e+00) (0, 0, 0.00000000000000000000e+00) (0, 0, 0.00000000000000000000e+00) (0, 0, 0.00000000000000000000e+00) (0, 0, 0.00000000000000000000e+00) (6, 3, 5.00000000000000000000e-01) (6, 3, 5.00000000000000000000e-01) (6, 3, 5.00000000000000000000e-01) (6, 3, 5.00000000000000000000e-01) (0, 3, 0.00000000000000000000e+00) (5, 0, 5.00000000000000000000e-01) (0, 0, 0.00000000000000000000e+00) 
connections (connected_to_neuron, weight)=(0, 1.19678176939487457275e-01) (1, -2.57276624441146850586e-01) (2, -2.63123899698257446289e-01) (3, 8.41006413102149963379e-02) (4, 6.25472590327262878418e-02) (5, 3.85321497917175292969e-01) (0, -7.20361396670341491699e-02) (1, 1.26592367887496948242e-01) (2, -5.65848611295223236084e-02) (3, -2.98405498266220092773e-01) (4, -6.57414942979812622070e-02) (5, 2.81777590513229370117e-01) (0, 1.32669889926910400391e+00) (1, -2.93136548995971679688e+00) (2, 1.30834827423095703125e+01) (3, 2.52891850471496582031e+00) (4, 1.65688169002532958984e+00) (5, 2.51979231834411621094e+00) (0, -9.68255549669265747070e-02) (1, 3.39507669210433959961e-01) (2, -4.14850652217864990234e-01) (3, -3.41206528246402740479e-02) (4, 3.21150645613670349121e-02) (5, 3.03592354059219360352e-01) (6, 1.07784223556518554688e+00) (7, 1.12634694576263427734e+00) (8, 1.20888614654541015625e+00) (9, 1.11090505123138427734e+00) (10, 1.25423908233642578125e+00) 
