FANN_FLO_2.1
num_layers=3
learning_rate=0.500000
connection_rate=1.000000
network_type=0
learning_momentum=0.000000
training_algorithm=2
train_error_function=1
train_stop_function=0
cascade_output_change_fraction=0.010000
quickprop_decay=-0.000100
quickprop_mu=1.750000
rprop_increase_factor=1.200000
rprop_decrease_factor=0.500000
rprop_delta_min=0.000000
rprop_delta_max=50.000000
rprop_delta_zero=0.100000
cascade_output_stagnation_epochs=12
cascade_candidate_change_fraction=0.010000
cascade_candidate_stagnation_epochs=12
cascade_max_out_epochs=150
cascade_min_out_epochs=50
cascade_max_cand_epochs=150
cascade_min_cand_epochs=50
cascade_num_candidate_groups=2
bit_fail_limit=3.49999994039535522461e-01
cascade_candidate_limit=1.00000000000000000000e+03
cascade_weight_multiplier=4.00000005960464477539e-01
cascade_activation_functions_count=10
cascade_activation_functions=3 5 7 8 10 11 14 15 16 17 
cascade_activation_steepnesses_count=4
cascade_activation_steepnesses=2.50000000000000000000e-01 5.00000000000000000000e-01 7.50000000000000000000e-01 1.00000000000000000000e+00 
layer_sizes=10 5 2 
scale_included=0
neurons (num_inputs, activation_function, activation_steepness)=(0, 0, 0.00000000000000000000e+00) (0, 0, 0.00000000000000000000e+00) (0, 0, 0.00000000000000000000e+00) (0, 0, 0.00000000000000000000e+00) (0, 0, 0.00000000000000000000e+00) (0, 0, 0.00000000000000000000e+00) (0, 0, 0.00000000000000000000e+00) (0, 0, 0.00000000000000000000e+00) (0, 0, 0.00000000000000000000e+00) (0, 0, 0.00000000000000000000e+00) (10, 3, 5.00000000000000000000e-01) (10, 3, 5.00000000000000000000e-01) (10, 3, 5.00000000000000000000e-01) (10, 3, 5.00000000000000000000e-01) (0, 3, 0.00000000000000000000e+00) (5, 3, 5.00000000000000000000e-01) (0, 3, 0.00000000000000000000e+00) 
connections (connected_to_neuron, weight)=(0, 8.59682083129882812500e+00) (1, 1.01956319808959960938e+01) (2, 6.82111310958862304688e+00) (3, -7.85354971885681152344e-01) (4, 1.10509917140007019043e-01) (5, 1.28714457154273986816e-01) (6, -5.56038808822631835938e+00) (7, -1.51990690231323242188e+01) (8, -5.10514831542968750000e+00) (9, -1.93597197532653808594e+00) (0, 1.72071027755737304688e+00) (1, -8.89857387542724609375e+00) (2, -1.32115592956542968750e+01) (3, 1.40631866455078125000e+01) (4, -3.52661252021789550781e-01) (5, -1.43194866180419921875e+01) (6, 8.49110698699951171875e+00) (7, 1.18938522338867187500e+01) (8, -2.47212290763854980469e+00) (9, -2.56711316108703613281e+00) (0, -1.10932731628417968750e+01) (1, -7.70205116271972656250e+00) (2, 9.88272130489349365234e-01) (3, -1.27421092987060546875e+01) (4, 6.39799311757087707520e-02) (5, 1.05833864212036132812e+01) (6, -1.63657736778259277344e+00) (7, 9.26466369628906250000e+00) (8, 1.03541049957275390625e+01) (9, -2.63084745407104492188e+00) (0, 1.97819447517395019531e+00) (1, 7.42903947830200195312e+00) (2, 8.90064334869384765625e+00) (3, 2.51365876197814941406e+00) (4, 2.71067905426025390625e+00) (5, 4.42902898788452148438e+00) (6, 2.82367658615112304688e+00) (7, -9.00374794006347656250e+00) (8, -1.74762344360351562500e+00) (9, -8.00860023498535156250e+00) (10, 4.11182689666748046875e+00) (11, 5.31529903411865234375e+00) (12, 5.39773368835449218750e+00) (13, 1.20079505443572998047e+00) (14, -2.53521895408630371094e+00) 
